memory_initialization_radix=2;
memory_initialization_vector=11111111111111111111000011111011 00000000000000000000000010001000 00000000000000000000001111110000 00000000000000000000001101011100 00000000000000000000001000110011 11111111111111111111111100001011 00000000000000000000001111110000 11111111111111111001111111010010 00000000000000000000001011110010 11111111111111111111111101100000 11111111111111111111111110100000 00000000000000000001000000000010 00000000000000000001000010010001 00000000000000000000001000011001 00000000000000000000011000110101 11111111111111111111111101110100 