memory_initialization_radix=16;
memory_initialization_vector=07dcd22612df1320001125f92707d80cdee1 19241b29141e20101904dcdf3105d5142bf6 ff0202f6f7fcf2edf5f6d944efd139f1e61e f5f2ebe8dfdefaf8f2f444171c26faf4cdd8 e9d9eef2031714220eb797d3dd08462a4a44 15250bf10b1ae4d3ee02ff0705cdee0def13 fffc00fcf0fe01fcfff1ff0bda0420ec0614 121bf60a1a0efc09092e2118e1cde7fc0601 