memory_initialization_radix=16;
memory_initialization_vector=f5c0b73b0abe4e4c002a41ee4c05b410c0d1 d7dddcd4c2cfece6e50cbac85502b33044f4 ff0407edf201ecedfe159b601a934417ce18 1f1d1a3438311b1c18e2fce7132207191b16 d4b4dde5032a264123d1cbe0f9021a1f2932 234c20da0627dbb5da03eef9f6a4d600f101 d4f60ff6f0ff0000ffd3fd28ad054ace0d2f 181a0d0f100d0d0c08443313b293cd162827 