memory_initialization_radix=16;
memory_initialization_vector=efcac6310ac63644f41e34f63f01c611c5df 011706101a15f7010107c2d346febe343cf4 02faf8211a0223270a409d2644980848daf8 e7edf7edf2f6e6ecf220f2fbe20118fb4925 cdb4d9df00262949317f7e3c2edbb4bb8eb0 1e401adf0221e6c0e10af3faffaad702e90d c5f418fdf0ff1a09fdd2ff2cae054cc30c38 dddef2e0dce9f0e8ed200af6b398dc363f43 